<unk>	0
<s>	0
</s>	0
<0x00>	0
<0x01>	0
<0x02>	0
<0x03>	0
<0x04>	0
<0x05>	0
<0x06>	0
<0x07>	0
<0x08>	0
<0x09>	0
<0x0A>	0
<0x0B>	0
<0x0C>	0
<0x0D>	0
<0x0E>	0
<0x0F>	0
<0x10>	0
<0x11>	0
<0x12>	0
<0x13>	0
<0x14>	0
<0x15>	0
<0x16>	0
<0x17>	0
<0x18>	0
<0x19>	0
<0x1A>	0
<0x1B>	0
<0x1C>	0
<0x1D>	0
<0x1E>	0
<0x1F>	0
<0x20>	0
<0x21>	0
<0x22>	0
<0x23>	0
<0x24>	0
<0x25>	0
<0x26>	0
<0x27>	0
<0x28>	0
<0x29>	0
<0x2A>	0
<0x2B>	0
<0x2C>	0
<0x2D>	0
<0x2E>	0
<0x2F>	0
<0x30>	0
<0x31>	0
<0x32>	0
<0x33>	0
<0x34>	0
<0x35>	0
<0x36>	0
<0x37>	0
<0x38>	0
<0x39>	0
<0x3A>	0
<0x3B>	0
<0x3C>	0
<0x3D>	0
<0x3E>	0
<0x3F>	0
<0x40>	0
<0x41>	0
<0x42>	0
<0x43>	0
<0x44>	0
<0x45>	0
<0x46>	0
<0x47>	0
<0x48>	0
<0x49>	0
<0x4A>	0
<0x4B>	0
<0x4C>	0
<0x4D>	0
<0x4E>	0
<0x4F>	0
<0x50>	0
<0x51>	0
<0x52>	0
<0x53>	0
<0x54>	0
<0x55>	0
<0x56>	0
<0x57>	0
<0x58>	0
<0x59>	0
<0x5A>	0
<0x5B>	0
<0x5C>	0
<0x5D>	0
<0x5E>	0
<0x5F>	0
<0x60>	0
<0x61>	0
<0x62>	0
<0x63>	0
<0x64>	0
<0x65>	0
<0x66>	0
<0x67>	0
<0x68>	0
<0x69>	0
<0x6A>	0
<0x6B>	0
<0x6C>	0
<0x6D>	0
<0x6E>	0
<0x6F>	0
<0x70>	0
<0x71>	0
<0x72>	0
<0x73>	0
<0x74>	0
<0x75>	0
<0x76>	0
<0x77>	0
<0x78>	0
<0x79>	0
<0x7A>	0
<0x7B>	0
<0x7C>	0
<0x7D>	0
<0x7E>	0
<0x7F>	0
<0x80>	0
<0x81>	0
<0x82>	0
<0x83>	0
<0x84>	0
<0x85>	0
<0x86>	0
<0x87>	0
<0x88>	0
<0x89>	0
<0x8A>	0
<0x8B>	0
<0x8C>	0
<0x8D>	0
<0x8E>	0
<0x8F>	0
<0x90>	0
<0x91>	0
<0x92>	0
<0x93>	0
<0x94>	0
<0x95>	0
<0x96>	0
<0x97>	0
<0x98>	0
<0x99>	0
<0x9A>	0
<0x9B>	0
<0x9C>	0
<0x9D>	0
<0x9E>	0
<0x9F>	0
<0xA0>	0
<0xA1>	0
<0xA2>	0
<0xA3>	0
<0xA4>	0
<0xA5>	0
<0xA6>	0
<0xA7>	0
<0xA8>	0
<0xA9>	0
<0xAA>	0
<0xAB>	0
<0xAC>	0
<0xAD>	0
<0xAE>	0
<0xAF>	0
<0xB0>	0
<0xB1>	0
<0xB2>	0
<0xB3>	0
<0xB4>	0
<0xB5>	0
<0xB6>	0
<0xB7>	0
<0xB8>	0
<0xB9>	0
<0xBA>	0
<0xBB>	0
<0xBC>	0
<0xBD>	0
<0xBE>	0
<0xBF>	0
<0xC0>	0
<0xC1>	0
<0xC2>	0
<0xC3>	0
<0xC4>	0
<0xC5>	0
<0xC6>	0
<0xC7>	0
<0xC8>	0
<0xC9>	0
<0xCA>	0
<0xCB>	0
<0xCC>	0
<0xCD>	0
<0xCE>	0
<0xCF>	0
<0xD0>	0
<0xD1>	0
<0xD2>	0
<0xD3>	0
<0xD4>	0
<0xD5>	0
<0xD6>	0
<0xD7>	0
<0xD8>	0
<0xD9>	0
<0xDA>	0
<0xDB>	0
<0xDC>	0
<0xDD>	0
<0xDE>	0
<0xDF>	0
<0xE0>	0
<0xE1>	0
<0xE2>	0
<0xE3>	0
<0xE4>	0
<0xE5>	0
<0xE6>	0
<0xE7>	0
<0xE8>	0
<0xE9>	0
<0xEA>	0
<0xEB>	0
<0xEC>	0
<0xED>	0
<0xEE>	0
<0xEF>	0
<0xF0>	0
<0xF1>	0
<0xF2>	0
<0xF3>	0
<0xF4>	0
<0xF5>	0
<0xF6>	0
<0xF7>	0
<0xF8>	0
<0xF9>	0
<0xFA>	0
<0xFB>	0
<0xFC>	0
<0xFD>	0
<0xFE>	0
<0xFF>	0
▁t	-0
he	-1
▁a	-2
▁s	-3
▁w	-4
nd	-5
▁the	-6
ed	-7
▁to	-8
▁b	-9
▁and	-10
▁h	-11
in	-12
▁f	-13
▁wa	-14
▁T	-15
it	-16
re	-17
ou	-18
▁l	-19
▁d	-20
▁c	-21
▁he	-22
▁p	-23
ay	-24
▁m	-25
er	-26
▁was	-27
om	-28
im	-29
on	-30
il	-31
▁The	-32
id	-33
is	-34
at	-35
ar	-36
▁sa	-37
▁n	-38
▁g	-39
ing	-40
▁ha	-41
▁S	-42
en	-43
an	-44
or	-45
le	-46
ll	-47
▁L	-48
▁th	-49
ot	-50
ily	-51
▁her	-52
▁it	-53
▁"	-54
am	-55
ir	-56
et	-57
▁Lily	-58
▁u	-59
▁O	-60
▁H	-61
▁On	-62
▁in	-63
ut	-64
▁pl	-65
ri	-66
▁Tim	-67
ow	-68
▁day	-69
▁be	-70
ver	-71
ce	-72
ith	-73
ig	-74
▁o	-75
▁with	-76
▁said	-77
▁play	-78
▁She	-79
pp	-80
ck	-81
ld	-82
▁They	-83
my	-84
▁e	-85
▁his	-86
▁He	-87
oo	-88
▁y	-89
▁st	-90
▁up	-91
▁that	-92
▁r	-93
▁on	-94
ke	-95
ked	-96
st	-97
▁mom	-98
▁she	-99
▁I	-100
ve	-101
nt	-102
itt	-103
very	-104
▁you	-105
▁happ	-106
▁they	-107
end	-108
▁B	-109
ime	-110
▁big	-111
▁fri	-112
se	-113
▁of	-114
▁friend	-115
ittle	-116
▁little	-117
ent	-118
▁time	-119
un	-120
ad	-121
▁had	-122
▁we	-123
▁there	-124
▁so	-125
▁One	-126
her	-127
▁for	-128
all	-129
ould	-130
▁nam	-131
▁want	-132
▁M	-133
▁happy	-134
▁saw	-135
▁named	-136
ved	-137
▁li	-138
▁but	-139
▁very	-140
▁do	-141
▁lo	-142
ch	-143
▁Once	-144
▁ne	-145
▁Timmy	-146
es	-147
▁upon	-148
out	-149
▁k	-150
▁sh	-151
ound	-152
."	-153
ly	-154
▁A	-155
▁not	-156
▁wh	-157
el	-158
ide	-159
ome	-160
ht	-161
al	-162
▁re	-163
▁bo	-164
ter	-165
▁went	-166
▁as	-167
▁an	-168
▁hel	-169
▁friends	-170
▁help	-171
!"	-172
ake	-173
▁too	-174
▁were	-175
▁loved	-176
▁wanted	-177
▁sm	-178
ird	-179
ore	-180
ack	-181
▁bird	-182
irl	-183
▁did	-184
ry	-185
▁girl	-186
▁toy	-187
ra	-188
▁all	-189
ug	-190
ind	-191
▁him	-192
▁It	-193
ur	-194
ame	-195
▁loo	-196
▁could	-197
rom	-198
▁Tom	-199
▁j	-200
▁out	-201
way	-202
get	-203
hen	-204
ted	-205
ec	-206
▁at	-207
▁is	-208
gether	-209
▁kn	-210
▁go	-211
ain	-212
▁se	-213
▁fun	-214
▁together	-215
ard	-216
▁But	-217
ark	-218
ul	-219
ood	-220
ue	-221
▁can	-222
side	-223
▁le	-224
?"	-225
ic	-226
ill	-227
▁tre	-228
ax	-229
▁asked	-230
▁boy	-231
▁sad	-232
hed	-233
ght	-234
▁Max	-235
▁W	-236
ful	-237
▁F	-238
elt	-239
▁ro	-240
▁back	-241
▁star	-242
▁felt	-243
own	-244
▁have	-245
▁them	-246
▁bec	-247
▁ca	-248
other	-249
▁cat	-250
one	-251
▁cl	-252
▁al	-253
▁sc	-254
▁sp	-255
▁found	-256
um	-257
▁their	-258
▁man	-259
▁dog	-260
round	-261
▁played	-262
hing	-263
ro	-264
▁park	-265
ong	-266
ick	-267
▁looked	-268
▁smil	-269
▁car	-270
▁came	-271
▁ball	-272
▁me	-273
▁are	-274
▁started	-275
▁fe	-276
▁fa	-277
▁would	-278
▁like	-279
▁tree	-280
omet	-281
▁new	-282
▁mommy	-283
ss	-284
▁ex	-285
▁ag	-286
ared	-287
▁Ben	-288
ure	-289
▁what	-290
▁didn	-291
ings	-292
ie	-293
▁make	-294
dd	-295
▁somet	-296
▁see	-297
▁no	-298
ny	-299
▁J	-300
ought	-301
▁playing	-302
ade	-303
ried	-304
▁wor	-305
▁some	-306
▁home	-307
op	-308
ice	-309
▁when	-310
ouse	-311
ag	-312
▁mu	-313
▁got	-314
You	-315
▁co	-316
▁made	-317
▁away	-318
▁wal	-319
if	-320
▁smiled	-321
▁then	-322
▁other	-323
▁again	-324
ty	-325
▁la	-326
▁every	-327
▁good	-328
king	-329
ned	-330
▁outside	-331
▁toys	-332
▁find	-333
▁from	-334
ble	-335
au	-336
ave	-337
▁around	-338
ook	-339
▁put	-340
▁fl	-341
ened	-342
ep	-343
▁Sue	-344
ways	-345
,"	-346
ause	-347
▁something	-348
uck	-349
ight	-350
▁always	-351
ally	-352
▁From	-353
▁because	-354
▁lear	-355
▁thought	-356
oud	-357
▁things	-358
▁scared	-359
▁ran	-360
ell	-361
▁liked	-362
▁who	-363
udd	-364
▁sw	-365
▁down	-366
▁Her	-367
▁Sam	-368
▁get	-369
▁kne	-370
as	-371
▁my	-372
▁ab	-373
▁took	-374
ant	-375
▁dec	-376
ret	-377
ust	-378
▁about	-379
ach	-380
▁know	-381
ist	-382
pl	-383
▁eat	-384
▁your	-385
▁ch	-386
▁house	-387
▁told	-388
fter	-389
ited	-390
▁care	-391
▁small	-392
▁knew	-393
ank	-394
ided	-395
▁tried	-396
▁decided	-397
▁any	-398
pped	-399
hat	-400
▁br	-401
▁pr	-402
▁bl	-403
ish	-404
▁Sp	-405
ite	-406
▁bu	-407
▁lot	-408
▁int	-409
▁say	-410
fe	-411
▁You	-412
▁So	-413
▁learned	-414
ous	-415
ile	-416
▁dad	-417
▁exc	-418
▁pret	-419
udden	-420
qu	-421
uddenly	-422
▁ta	-423
▁Spot	-424
▁When	-425
▁v	-426
ise	-427
▁laug	-428
▁sun	-429
▁much	-430
▁more	-431
ers	-432
▁feel	-433
are	-434
ob	-435
▁lived	-436
nder	-437
▁ke	-438
▁box	-439
ive	-440
▁will	-441
ace	-442
▁show	-443
▁po	-444
▁hug	-445
ven	-446
ump	-447
▁Mom	-448
▁into	-449
uc	-450
▁un	-451
▁D	-452
ia	-453
▁one	-454
urp	-455
▁gave	-456
▁Suddenly	-457
▁water	-458
▁need	-459
▁excited	-460
etter	-461
▁inside	-462
▁ho	-463
▁As	-464
ate	-465
oth	-466
ap	-467
ort	-468
▁how	-469
▁room	-470
▁gra	-471
▁tr	-472
▁And	-473
dy	-474
▁pick	-475
▁couldn	-476
▁gre	-477
▁E	-478
▁pe	-479
▁cle	-480
▁if	-481
▁many	-482
▁His	-483
▁take	-484
▁look	-485
▁long	-486
▁pu	-487
our	-488
▁pretty	-489
▁became	-490
▁Mia	-491
urt	-492
▁op	-493
urpr	-494
▁run	-495
▁over	-496
▁sk	-497
iz	-498
▁surpr	-499
▁best	-500
here	-501
▁better	-502
▁bear	-503
bb	-504
lf	-505
▁im	-506
▁than	-507
ised	-508
▁mo	-509
ged	-510
▁red	-511
▁kind	-512
▁just	-513
lew	-514
Th	-515
▁fi	-516
ge	-517
ma	-518
ink	-519
▁str	-520
▁gr	-521
▁flow	-522
iny	-523
imal	-524
▁animal	-525
▁even	-526
Yes	-527
▁sl	-528
▁this	-529
em	-530
▁end	-531
▁fast	-532
▁clean	-533
▁laughed	-534
▁jump	-535
▁careful	-536
▁dre	-537
sed	-538
▁both	-539
ched	-540
▁wat	-541
▁list	-542
▁Bob	-543
▁or	-544
ucy	-545
▁rock	-546
ber	-547
▁nice	-548
ving	-549
▁Lucy	-550
ess	-551
▁After	-552
Can	-553
▁clo	-554
▁tow	-555
▁never	-556
▁imp	-557
▁by	-558
▁says	-559
▁Then	-560
▁under	-561
ion	-562
▁old	-563
▁happened	-564
ct	-565
▁heard	-566
▁fly	-567
▁walked	-568
ine	-569
pec	-570
▁hurt	-571
▁sn	-572
▁safe	-573
ase	-574
▁animals	-575
▁com	-576
▁proud	-577
▁en	-578
ied	-579
▁try	-580
▁ri	-581
▁hand	-582
▁te	-583
igh	-584
▁don	-585
ft	-586
▁col	-587
▁fore	-588
▁sky	-589
orry	-590
▁lots	-591
Thank	-592
▁flew	-593
kay	-594
▁dan	-595
▁while	-596
ara	-597
▁bea	-598
▁fo	-599
▁food	-600
▁fam	-601
▁fish	-602
▁ground	-603
▁stor	-604
▁let	-605
▁ra	-606
▁repl	-607
▁each	-608
oug	-609
illy	-610
▁sorry	-611
▁rem	-612
▁picked	-613
ough	-614
▁pic	-615
▁che	-616
▁ide	-617
▁off	-618
▁its	-619
ies	-620
▁shiny	-621
▁idea	-622
ady	-623
▁We	-624
▁real	-625
▁replied	-626
ex	-627
▁bad	-628
ff	-629
by	-630
imb	-631
▁Benny	-632
▁share	-633
sh	-634
gry	-635
▁come	-636
▁climb	-637
▁tur	-638
▁Jack	-639
▁Sara	-640
ool	-641
ial	-642
▁import	-643
ture	-644
▁way	-645
▁loud	-646
▁spec	-647
more	-648
▁special	-649
▁anymore	-650
▁beaut	-651
ning	-652
▁unt	-653
▁bro	-654
▁important	-655
self	-656
▁family	-657
rm	-658
▁wind	-659
▁ad	-660
nn	-661
▁thanked	-662
▁	-663
e	-664
a	-665
t	-666
o	-667
h	-668
n	-669
i	-670
d	-671
s	-672
r	-673
l	-674
y	-675
m	-676
w	-677
u	-678
.	-679
p	-680
g	-681
c	-682
b	-683
f	-684
,	-685
k	-686
T	-687
v	-688
"	-689
S	-690
L	-691
'	-692
H	-693
O	-694
I	-695
!	-696
x	-697
B	-698
M	-699
A	-700
W	-701
j	-702
?	-703
z	-704
Y	-705
F	-706
J	-707
D	-708
q	-709
C	-710
N	-711
E	-712
P	-713
R	-714
K	-715
G	-716
-	-717
“	-718
”	-719
:	-720
’	-721
Z	-722
V	-723
U	-724
3	-725
Q	-726
;	-727
1	-728
–	-729
0	-730
X	-731
2	-732
5	-733
—	-734
‘	-735
9	-736
4	-737
é	-738
…	-739
8	-740
)	-741
(	-742
6	-743
7	-744
/	-745
ñ	-746
$	-747
`	-748
+	-749
*	-750
 	-751
&	-752
\	-753
%	-754
â	-755
€	-756
<	-757
>	-758
|	-759
™	-760
[	-761
]	-762
~	-763
 	-764
