<unk>	0
<s>	0
</s>	0

	0
▁t	-0
he	-1
▁a	-2
▁s	-3
▁w	-4
nd	-5
▁the	-6
ed	-7
▁to	-8
▁b	-9
▁and	-10
▁h	-11
in	-12
▁f	-13
▁wa	-14
▁T	-15
it	-16
re	-17
ou	-18
▁l	-19
▁d	-20
▁c	-21
▁he	-22
▁p	-23
ay	-24
▁m	-25
er	-26
▁was	-27
om	-28
im	-29
on	-30
il	-31
▁The	-32
id	-33
is	-34
at	-35
ar	-36
▁sa	-37
▁n	-38
▁g	-39
ing	-40
▁ha	-41
▁S	-42
en	-43
an	-44
or	-45
le	-46
ll	-47
▁L	-48
▁th	-49
ot	-50
ily	-51
▁her	-52
▁it	-53
▁"	-54
am	-55
ir	-56
et	-57
▁Lily	-58
▁u	-59
▁O	-60
▁H	-61
▁On	-62
▁in	-63
ut	-64
▁pl	-65
ri	-66
▁Tim	-67
ow	-68
▁day	-69
▁be	-70
ver	-71
ce	-72
ith	-73
ig	-74
▁o	-75
▁with	-76
▁said	-77
▁play	-78
▁She	-79
pp	-80
ck	-81
ld	-82
▁They	-83
my	-84
▁e	-85
▁his	-86
▁He	-87
oo	-88
▁y	-89
▁st	-90
▁up	-91
▁that	-92
▁r	-93
▁on	-94
ke	-95
ked	-96
st	-97
▁mom	-98
▁she	-99
▁I	-100
ve	-101
nt	-102
itt	-103
very	-104
▁you	-105
▁happ	-106
▁they	-107
end	-108
▁B	-109
ime	-110
▁big	-111
▁fri	-112
se	-113
▁of	-114
▁friend	-115
ittle	-116
▁little	-117
ent	-118
▁time	-119
un	-120
ad	-121
▁had	-122
▁we	-123
▁there	-124
▁so	-125
▁One	-126
her	-127
▁for	-128
all	-129
ould	-130
▁nam	-131
▁want	-132
▁M	-133
▁happy	-134
▁saw	-135
▁named	-136
ved	-137
▁li	-138
▁but	-139
▁very	-140
▁do	-141
▁lo	-142
ch	-143
▁Once	-144
▁ne	-145
▁Timmy	-146
es	-147
▁upon	-148
out	-149
▁k	-150
▁sh	-151
ound	-152
."	-153
ly	-154
▁A	-155
▁not	-156
▁wh	-157
el	-158
ide	-159
ome	-160
ht	-161
al	-162
▁re	-163
▁bo	-164
ter	-165
▁went	-166
▁as	-167
▁an	-168
▁hel	-169
▁friends	-170
▁help	-171
!"	-172
ake	-173
▁too	-174
▁were	-175
▁loved	-176
▁wanted	-177
▁sm	-178
ird	-179
ore	-180
ack	-181
▁bird	-182
irl	-183
▁did	-184
ry	-185
▁girl	-186
▁toy	-187
ra	-188
▁all	-189
ug	-190
ind	-191
▁him	-192
▁It	-193
ur	-194
ame	-195
▁loo	-196
▁could	-197
rom	-198
▁Tom	-199
▁j	-200
▁out	-201
way	-202
get	-203
hen	-204
ted	-205
ec	-206
▁at	-207
▁is	-208
gether	-209
▁kn	-210
▁go	-211
ain	-212
▁se	-213
▁fun	-214
▁together	-215
ard	-216
▁But	-217
ark	-218
ul	-219
ood	-220
ue	-221
▁can	-222
side	-223
▁le	-224
?"	-225
ic	-226
ill	-227
▁tre	-228
ax	-229
▁asked	-230
▁boy	-231
▁sad	-232
hed	-233
ght	-234
▁Max	-235
▁W	-236
ful	-237
▁F	-238
elt	-239
▁ro	-240
▁back	-241
▁star	-242
▁felt	-243
own	-244
▁have	-245
▁them	-246
▁bec	-247
▁ca	-248
other	-249
▁cat	-250
one	-251
▁cl	-252
▁al	-253
▁sc	-254
▁sp	-255
▁found	-256
um	-257
▁their	-258
▁man	-259
▁dog	-260
round	-261
▁played	-262
hing	-263
ro	-264
▁park	-265
ong	-266
ick	-267
▁looked	-268
▁smil	-269
▁car	-270
▁came	-271
▁ball	-272
▁me	-273
▁are	-274
▁started	-275
▁fe	-276
▁fa	-277
▁would	-278
▁like	-279
▁tree	-280
omet	-281
▁new	-282
▁mommy	-283
ss	-284
▁ex	-285
▁ag	-286
ared	-287
▁Ben	-288
ure	-289
▁what	-290
▁didn	-291
ings	-292
ie	-293
▁make	-294
dd	-295
▁somet	-296
▁see	-297
▁no	-298
ny	-299
▁J	-300
ought	-301
▁playing	-302
ade	-303
ried	-304
▁wor	-305
▁some	-306
▁home	-307
op	-308
ice	-309
▁when	-310
ouse	-311
ag	-312
▁mu	-313
▁got	-314
You	-315
▁co	-316
▁made	-317
▁away	-318
▁wal	-319
if	-320
▁smiled	-321
▁then	-322
▁other	-323
▁again	-324
ty	-325
▁la	-326
▁every	-327
▁good	-328
king	-329
ned	-330
▁outside	-331
▁toys	-332
▁find	-333
▁from	-334
ble	-335
au	-336
ave	-337
▁around	-338
ook	-339
▁put	-340
▁fl	-341
ened	-342
ep	-343
▁Sue	-344
ways	-345
,"	-346
ause	-347
▁something	-348
uck	-349
ight	-350
▁always	-351
ally	-352
▁From	-353
▁because	-354
▁lear	-355
▁thought	-356
oud	-357
▁things	-358
▁scared	-359
▁ran	-360
ell	-361
▁liked	-362
▁who	-363
udd	-364
▁sw	-365
▁down	-366
▁Her	-367
▁Sam	-368
▁get	-369
▁kne	-370
as	-371
▁my	-372
▁ab	-373
▁took	-374
ant	-375
▁dec	-376
ret	-377
ust	-378
▁about	-379
ach	-380
▁know	-381
ist	-382
pl	-383
▁eat	-384
▁your	-385
▁ch	-386
▁house	-387
▁told	-388
fter	-389
ited	-390
▁care	-391
▁small	-392
▁knew	-393
ank	-394
ided	-395
▁tried	-396
▁decided	-397
▁any	-398
pped	-399
hat	-400
▁br	-401
▁pr	-402
▁bl	-403
ish	-404
▁Sp	-405
▁	-406
e	-407
a	-408
t	-409
o	-410
h	-411
n	-412
i	-413
d	-414
s	-415
r	-416
l	-417
y	-418
m	-419
w	-420
u	-421
.	-422
p	-423
g	-424
c	-425
b	-426
f	-427
,	-428
k	-429
T	-430
v	-431
"	-432
S	-433
L	-434
'	-435
H	-436
O	-437
I	-438
!	-439
x	-440
B	-441
M	-442
A	-443
W	-444
j	-445
?	-446
z	-447
Y	-448
F	-449
J	-450
D	-451
q	-452
C	-453
N	-454
E	-455
P	-456
R	-457
K	-458
G	-459
-	-460
“	-461
”	-462
:	-463
’	-464
Z	-465
V	-466
U	-467
3	-468
Q	-469
;	-470
1	-471
–	-472
0	-473
X	-474
2	-475
5	-476
—	-477
‘	-478
9	-479
4	-480
é	-481
…	-482
8	-483
)	-484
(	-485
6	-486
7	-487
/	-488
ñ	-489
$	-490
`	-491
+	-492
*	-493
 	-494
&	-495
\	-496
%	-497
â	-498
€	-499
<	-500
>	-501
|	-502
™	-503
[	-504
]	-505
~	-506
 	-507
